<unk>	0
<s>	0
</s>	0
▁t	-0
in	-1
he	-2
▁a	-3
er	-4
==	-5
▁с	-6
на	-7
on	-8
је	-9
▁the	-10
▁п	-11
▁==	-12
an	-13
ра	-14
re	-15
ни	-16
ко	-17
▁и	-18
at	-19
en	-20
▁s	-21
▁o	-22
ed	-23
но	-24
▁у	-25
та	-26
▁w	-27
al	-28
or	-29
is	-30
ar	-31
▁д	-32
▁је	-33
▁о	-34
es	-35
ре	-36
it	-37
nd	-38
▁на	-39
▁in	-40
ти	-41
ла	-42
ве	-43
не	-44
ка	-45
▁f	-46
▁p	-47
▁of	-48
▁c	-49
▁1	-50
ма	-51
▁b	-52
as	-53
ли	-54
ва	-55
ри	-56
▁and	-57
ro	-58
ic	-59
▁по	-60
ing	-61
ion	-62
▁(	-63
во	-64
▁T	-65
ви	-66
▁S	-67
ја	-68
ро	-69
▁d	-70
то	-71
▁m	-72
ди	-73
▁2	-74
le	-75
▁C	-76
▁to	-77
те	-78
ло	-79
▁A	-80
il	-81
▁С	-82
▁h	-83
ou	-84
за	-85
ци	-86
▁г	-87
▁б	-88
▁19	-89
st	-90
ме	-91
▁M	-92
om	-93
▁ко	-94
▁I	-95
ent	-96
▁20	-97
▁се	-98
ac	-99
el	-100
am	-101
да	-102
ol	-103
ки	-104
▁B	-105
ле	-106
▁P	-107
▁П	-108
▁re	-109
ad	-110
▁l	-111
▁H	-112
ње	-113
▁да	-114
im	-115
et	-116
▁n	-117
▁R	-118
ec	-119
▁за	-120
▁===	-121
▁су	-122
ur	-123
▁М	-124
ру	-125
▁од	-126
си	-127
ation	-128
▁а	-129
▁The	-130
▁са	-131
▁was	-132
ји	-133
се	-134
ју	-135
ст	-136
мо	-137
iv	-138
▁из	-139
id	-140
▁L	-141
ке	-142
ку	-143
ay	-144
ot	-145
▁би	-146
us	-147
▁e	-148
ter	-149
па	-150
▁ве	-151
ir	-152
ig	-153
зи	-154
▁th	-155
▁G	-156
▁N	-157
ми	-158
▁for	-159
▁W	-160
ly	-161
ста	-162
▁D	-163
un	-164
▁ка	-165
▁F	-166
по	-167
▁g	-168
де	-169
ut	-170
▁on	-171
em	-172
са	-173
це	-174
▁is	-175
▁E	-176
▁К	-177
ту	-178
ско	-179
ch	-180
оди	-181
ље	-182
ну	-183
ra	-184
▁А	-185
▁J	-186
ith	-187
ow	-188
сти	-189
▁до	-190
▁201	-191
го	-192
ers	-193
ist	-194
um	-195
▁st	-196
her	-197
▁Н	-198
▁as	-199
▁O	-200
ct	-201
ља	-202
ски	-203
га	-204
▁ра	-205
ul	-206
вни	-207
▁Р	-208
пи	-209
ce	-210
▁with	-211
▁не	-212
os	-213
▁годи	-214
лу	-215
and	-216
th	-217
▁В	-218
▁пре	-219
▁K	-220
▁про	-221
▁at	-222
od	-223
ња	-224
▁к	-225
▁by	-226
жа	-227
ri	-228
че	-229
ag	-230
▁Б	-231
ver	-232
▁pro	-233
00	-234
▁be	-235
▁k	-236
▁al	-237
жи	-238
би	-239
est	-240
▁Д	-241
ine	-242
op	-243
сто	-244
▁"	-245
ги	-246
▁године	-247
ца	-248
зе	-249
▁In	-250
▁О	-251
▁wh	-252
▁Ме	-253
▁де	-254
▁Т	-255
▁ста	-256
rom	-257
▁an	-258
av	-259
▁насе	-260
чи	-261
▁he	-262
▁при	-263
▁ф	-264
▁Ј	-265
ap	-266
▁con	-267
▁Л	-268
ab	-269
▁ш	-270
▁И	-271
ба	-272
ча	-273
▁е	-274
▁v	-275
ak	-276
▁Г	-277
▁St	-278
ржа	-279
новни	-280
og	-281
▁U	-282
▁u	-283
▁from	-284
▁ма	-285
▁ре	-286
ian	-287
▁Х	-288
ub	-289
ia	-290
oc	-291
тра	-292
je	-293
до	-294
пе	-295
▁На	-296
▁de	-297
▁По	-298
if	-299
res	-300
▁м	-301
0.	-302
јо	-303
art	-304
ain	-305
▁his	-306
ber	-307
ill	-308
),	-309
ud	-310
▁that	-311
▁(1	-312
▁V	-313
ran	-314
љу	-315
▁it	-316
all	-317
▁који	-318
ity	-319
ies	-320
ew	-321
▁com	-322
▁У	-323
ip	-324
▁pl	-325
ov	-326
▁то	-327
гра	-328
ном	-329
ate	-330
▁в	-331
ug	-332
▁те	-333
▁„	-334
гу	-335
▁3	-336
пар	-337
▁ме	-338
фе	-339
ћи	-340
▁se	-341
▁мо	-342
igh	-343
бо	-344
ске	-345
же	-346
▁као	-347
кси	-348
▁200	-349
ду	-350
бе	-351
њи	-352
ће	-353
ног	-354
ard	-355
▁Ре	-356
qu	-357
ђе	-358
ort	-359
▁та	-360
ан	-361
ack	-362
вез	-363
▁држа	-364
рен	-365
ces	-366
▁з	-367
ore	-368
ated	-369
▁жи	-370
шти	-371
ere	-372
ld	-373
se	-374
ich	-375
ect	-376
су	-377
▁ви	-378
end	-379
▁Re	-380
▁становни	-381
ant	-382
▁Мекси	-383
▁ни	-384
ар	-385
ary	-386
ше	-387
).	-388
▁were	-389
них	-390
ost	-391
ure	-392
ној	-393
ks	-394
▁18	-395
nt	-396
ive	-397
ial	-398
со	-399
ком	-400
▁Ch	-401
▁or	-402
ment	-403
our	-404
▁ex	-405
ге	-406
so	-407
▁т	-408
ска	-409
du	-410
iz	-411
▁r	-412
шт	-413
ција	-414
ферен	-415
ear	-416
▁su	-417
зо	-418
▁х	-419
▁оп	-420
▁4	-421
▁Спар	-422
ell	-423
ach	-424
шње	-425
▁З	-426
fer	-427
▁об	-428
▁Референ	-429
▁Референце	-430
▁Ви	-431
▁199	-432
▁He	-433
ast	-434
ish	-435
▁био	-436
ge	-437
фи	-438
ор	-439
ву	-440
▁ch	-441
вр	-442
▁становника	-443
▁гра	-444
ame	-445
ight	-446
ord	-447
▁also	-448
▁Са	-449
per	-450
▁раз	-451
ue	-452
пу	-453
▁Е	-454
ok	-455
лази	-456
▁дру	-457
ong	-458
ions	-459
ције	-460
вој	-461
▁sp	-462
any	-463
ћа	-464
cl	-465
ical	-466
ској	-467
19	-468
ши	-469
mer	-470
1.	-471
ског	-472
▁are	-473
сте	-474
нти	-475
▁ње	-476
▁јо	-477
▁Пре	-478
▁Спо	-479
ђу	-480
ним	-481
▁Ф	-482
▁which	-483
2.	-484
ша	-485
▁5	-486
▁le	-487
чки	-488
▁што	-489
ous	-490
▁везе	-491
20	-492
pt	-493
▁It	-494
irst	-495
▁насеље	-496
▁општи	-497
љашње	-498
▁још	-499
pp	-500
▁сво	-501
▁comp	-502
▁Спољашње	-503
are	-504
ice	-505
▁us	-506
ust	-507
ational	-508
ib	-509
▁y	-510
ess	-511
lect	-512
ther	-513
▁ar	-514
▁пр	-515
▁налази	-516
рх	-517
▁Al	-518
▁first	-519
ke	-520
▁j	-521
erv	-522
тан	-523
▁пе	-524
нг	-525
ire	-526
tern	-527
ne	-528
▁je	-529
▁Un	-530
own	-531
кон	-532
▁6	-533
▁Th	-534
▁un	-535
ace	-536
зна	-537
ry	-538
to	-539
▁Y	-540
рија	-541
▁над	-542
aj	-543
▁Јо	-544
▁play	-545
ff	-546
▁си	-547
▁све	-548
ric	-549
▁ди	-550
7.	-551
age	-552
▁ro	-553
▁Ста	-554
▁Can	-555
му	-556
ie	-557
▁ли	-558
ond	-559
▁sh	-560
ater	-561
▁Према	-562
▁има	-563
9.	-564
io	-565
▁Па	-566
▁но	-567
man	-568
▁Ма	-569
ass	-570
њу	-571
▁i	-572
ork	-573
▁Ar	-574
рт	-575
сле	-576
дни	-577
чко	-578
▁Ка	-579
▁савез	-580
сни	-581
▁Ли	-582
логи	-583
5.	-584
ite	-585
te	-586
ru	-587
▁whe	-588
▁Canad	-589
зу	-590
чка	-591
▁197	-592
▁Com	-593
▁Види	-594
ult	-595
цима	-596
3.	-597
реме	-598
▁202	-599
▁has	-600
▁tw	-601
fter	-602
und	-603
land	-604
▁под	-605
az	-606
feren	-607
ations	-608
▁cont	-609
▁живе	-610
▁cl	-611
pl	-612
▁кра	-613
8.	-614
ign	-615
мор	-616
тив	-617
▁te	-618
штво	-619
orn	-620
vel	-621
▁im	-622
▁its	-623
ности	-624
сту	-625
она	-626
▁New	-627
▁196	-628
хо	-629
▁ми	-630
▁part	-631
ory	-632
▁Ми	-633
▁ин	-634
▁res	-635
сај	-636
hn	-637
▁ос	-638
ран	-639
ember	-640
ime	-641
▁веб	-642
▁која	-643
4.	-644
ubl	-645
▁држави	-646
old	-647
ome	-648
▁198	-649
▁виси	-650
▁who	-651
ide	-652
▁her	-653
▁пода	-654
rit	-655
▁Ко	-656
ских	-657
ins	-658
–19	-659
▁му	-660
act	-661
ave	-662
▁194	-663
han	-664
▁en	-665
▁Referen	-666
olog	-667
▁bec	-668
amp	-669
▁ок	-670
▁пу	-671
ount	-672
ja	-673
up	-674
▁била	-675
ced	-676
▁фи	-677
inal	-678
ском	-679
▁савезној	-680
▁As	-681
ng	-682
ob	-683
we	-684
▁z	-685
ile	-686
▁had	-687
▁надмор	-688
orm	-689
ound	-690
▁====	-691
▁није	-692
6.	-693
чни	-694
▁-	-695
able	-696
▁not	-697
љи	-698
out	-699
рхи	-700
clud	-701
▁(19	-702
che	-703
ang	-704
ition	-705
сајту	-706
▁које	-707
▁ad	-708
ik	-709
ild	-710
дно	-711
ence	-712
ark	-713
▁193	-714
▁two	-715
ха	-716
цу	-717
▁вој	-718
▁или	-719
back	-720
▁нај	-721
aw	-722
hip	-723
ugh	-724
8)	-725
ph	-726
▁–	-727
▁њего	-728
achine	-729
▁their	-730
▁Le	-731
▁one	-732
▁per	-733
▁висини	-734
▁ab	-735
over	-736
▁References	-737
▁надморској	-738
▁Se	-739
▁includ	-740
uring	-741
ans	-742
ont	-743
ство	-744
ако	-745
ску	-746
▁насељу	-747
▁Sh	-748
▁Way	-749
ens	-750
рано	-751
ree	-752
▁па	-753
▁195	-754
ood	-755
▁des	-756
▁пред	-757
▁Ц	-758
ied	-759
ium	-760
пис	-761
▁општини	-762
yst	-763
ates	-764
ail	-765
води	-766
▁Machine	-767
чу	-768
вао	-769
oll	-770
▁ла	-771
нт	-772
нта	-773
ings	-774
писа	-775
сеље	-776
▁year	-777
▁ст	-778
▁Wayback	-779
way	-780
вање	-781
▁this	-782
▁Архи	-783
▁2010.	-784
wn	-785
▁Sp	-786
▁насеља	-787
ео	-788
▁Ш	-789
▁ac	-790
▁бро	-791
шта	-792
▁пра	-793
ons	-794
▁serv	-795
ci	-796
кми	-797
чке	-798
▁up	-799
▁Мо	-800
vent	-801
▁живело	-802
рије	-803
ystem	-804
вирано	-805
▁Архивирано	-806
ер	-807
▁За	-808
ould	-809
▁pre	-810
▁rec	-811
▁pr	-812
▁dis	-813
новништво	-814
▁Становништво	-815
вог	-816
пре	-817
▁пла	-818
▁поста	-819
▁државе	-820
ased	-821
▁tra	-822
▁Мексику	-823
ван	-824
род	-825
▁Ра	-826
▁9	-827
▁Ч	-828
nder	-829
▁Насеље	-830
ath	-831
▁da	-832
ep	-833
ft	-834
urn	-835
orld	-836
ah	-837
▁че	-838
▁ја	-839
логија	-840
oj	-841
ular	-842
ublic	-843
▁исто	-844
▁подацима	-845
тим	-846
▁ју	-847
ase	-848
ual	-849
бра	-850
риш	-851
▁(2	-852
000	-853
▁bu	-854
ction	-855
les	-856
▁То	-857
▁Canada	-858
arch	-859
тали	-860
gan	-861
вом	-862
тера	-863
▁but	-864
ts	-865
▁стра	-866
▁after	-867
ђа	-868
вић	-869
▁ne	-870
▁ra	-871
ife	-872
▁До	-873
▁pol	-874
ade	-875
вља	-876
ance	-877
▁—	-878
▁On	-879
ited	-880
волу	-881
▁само	-882
▁7	-883
пра	-884
ред	-885
▁have	-886
▁other	-887
▁Jo	-888
▁живо	-889
4,	-890
hed	-891
ind	-892
рио	-893
чно	-894
▁kn	-895
rop	-896
▁Ind	-897
ivers	-898
rans	-899
▁тако	-900
5,	-901
вих	-902
лан	-903
ress	-904
velop	-905
▁all	-906
▁оста	-907
▁Z	-908
ose	-909
▁been	-910
iss	-911
▁Ex	-912
ely	-913
one	-914
▁Ла	-915
▁ку	-916
лико	-917
▁team	-918
▁Савез	-919
2,	-920
8,	-921
gh	-922
eld	-923
▁Ба	-924
▁от	-925
ward	-926
бу	-927
▁Ср	-928
▁ау	-929
▁ге	-930
apan	-931
oin	-932
ool	-933
▁Pro	-934
▁март	-935
▁Попис	-936
лек	-937
▁192	-938
▁вла	-939
▁produ	-940
ман	-941
▁ag	-942
тура	-943
▁comm	-944
ve	-945
вен	-946
сиф	-947
тер	-948
cess	-949
▁app	-950
rib	-951
port	-952
▁бо	-953
▁пи	-954
▁окру	-955
▁under	-956
eat	-957
том	-958
вали	-959
▁било	-960
▁зна	-961
▁кон	-962
0,	-963
ju	-964
вље	-965
ште	-966
▁Де	-967
amil	-968
вања	-969
роно	-970
јући	-971
oy	-972
inn	-973
ors	-974
вер	-975
form	-976
ским	-977
rat	-978
▁Бо	-979
▁Не	-980
▁int	-981
▁loc	-982
▁били	-983
▁2018)	-984
нија	-985
▁bet	-986
▁lin	-987
".	-988
ars	-989
ted	-990
▁him	-991
▁Јосиф	-992
▁Хроно	-993
▁Хронологија	-994
oth	-995
▁fl	-996
▁чи	-997
▁Пав	-998
▁Comp	-999
▁8	-1000
тно	-1001
▁га	-1002
▁јед	-1003
▁National	-1004
шп	-1005
▁ус	-1006
▁њи	-1007
ents	-1008
▁али	-1009
▁(10.	-1010
vi	-1011
▁elect	-1012
▁време	-1013
▁након	-1014
▁Је	-1015
ства	-1016
ional	-1017
rough	-1018
матра	-1019
▁током	-1020
▁Мексика	-1021
7,	-1022
▁бе	-1023
није	-1024
▁Савезне	-1025
▁Мексичка	-1026
1,	-1027
6,	-1028
ics	-1029
rad	-1030
▁вр	-1031
ween	-1032
цију	-1033
3,	-1034
▁became	-1035
ka	-1036
ict	-1037
▁stud	-1038
eb	-1039
eral	-1040
вима	-1041
чкој	-1042
▁Павко	-1043
ni	-1044
▁ч	-1045
гла	-1046
дан	-1047
ough	-1048
▁тра	-1049
▁during	-1050
▁sa	-1051
▁Пе	-1052
chool	-1053
▁form	-1054
▁work	-1055
▁Џ	-1056
ral	-1057
кра	-1058
▁Pl	-1059
▁Итали	-1060
use	-1061
▁over	-1062
▁Japan	-1063
ari	-1064
ren	-1065
▁го	-1066
дио	-1067
▁љу	-1068
ason	-1069
▁into	-1070
uc	-1071
▁An	-1072
▁ду	-1073
▁time	-1074
▁used	-1075
▁15	-1076
▁do	-1077
▁od	-1078
▁off	-1079
▁they	-1080
”.	-1081
▁me	-1082
▁ва	-1083
▁пот	-1084
▁when	-1085
▁века	-1086
▁други	-1087
вио	-1088
сла	-1089
▁Ве	-1090
▁же	-1091
нији	-1092
▁191	-1093
▁system	-1094
▁between	-1095
rol	-1096
зик	-1097
▁Но	-1098
▁ле	-1099
ield	-1100
▁new	-1101
meric	-1102
▁против	-1103
▁develop	-1104
▁De	-1105
▁act	-1106
▁sec	-1107
▁гру	-1108
▁where	-1109
▁years	-1110
ale	-1111
ron	-1112
reat	-1113
▁att	-1114
▁књи	-1115
ished	-1116
ology	-1117
▁cent	-1118
ven	-1119
кљу	-1120
јом	-1121
orth	-1122
ower	-1123
стра	-1124
▁гла	-1125
ision	-1126
▁градо	-1127
ober	-1128
▁нау	-1129
▁поче	-1130
oci	-1131
oun	-1132
red	-1133
tal	-1134
тни	-1135
▁Par	-1136
▁She	-1137
▁can	-1138
▁код	-1139
ities	-1140
он	-1141
▁н	-1142
▁At	-1143
ake	-1144
▁Би	-1145
echn	-1146
▁she	-1147
▁Fran	-1148
▁вели	-1149
▁Americ	-1150
",	-1151
ina	-1152
ten	-1153
бог	-1154
роди	-1155
▁reg	-1156
▁тре	-1157
▁Khan	-1158
▁наста	-1159
ampions	-1160
▁Спарта	-1161
iam	-1162
ise	-1163
ram	-1164
цио	-1165
▁17	-1166
▁na	-1167
▁ба	-1168
▁(20	-1169
ounty	-1170
round	-1171
▁This	-1172
▁rel	-1173
еогра	-1174
▁there	-1175
тература	-1176
▁Ж	-1177
ilm	-1178
ton	-1179
ury	-1180
вим	-1181
ject	-1182
▁гене	-1183
партан	-1184
▁qu	-1185
▁190	-1186
▁pop	-1187
▁sub	-1188
▁после	-1189
▁Литература	-1190
ier	-1191
▁фа	-1192
онал	-1193
▁око	-1194
▁cons	-1195
▁година	-1196
iversity	-1197
▁Q	-1198
ese	-1199
ote	-1200
лом	-1201
▁Да	-1202
ност	-1203
▁(18	-1204
▁док	-1205
▁rele	-1206
▁плани	-1207
▁позна	-1208
pr	-1209
бли	-1210
▁ар	-1211
▁Ger	-1212
▁most	-1213
▁known	-1214
▁спартан	-1215
na	-1216
хва	-1217
arri	-1218
ouse	-1219
▁lar	-1220
ристи	-1221
▁found	-1222
▁еволу	-1223
anu	-1224
emb	-1225
son	-1226
▁Ју	-1227
▁ис	-1228
ince	-1229
ived	-1230
▁oper	-1231
▁више	-1232
▁would	-1233
▁сматра	-1234
pen	-1235
▁ор	-1236
outh	-1237
▁име	-1238
▁спо	-1239
▁дана	-1240
istory	-1241
▁about	-1242
▁trans	-1243
▁Ки	-1244
ific	-1245
▁bro	-1246
▁med	-1247
other	-1248
▁Спартан	-1249
hy	-1250
ен	-1251
међу	-1252
▁inc	-1253
▁одно	-1254
▁record	-1255
▁through	-1256
ki	-1257
▁sc	-1258
fore	-1259
▁Jun	-1260
ollow	-1261
▁more	-1262
▁will	-1263
▁Павков	-1264
ampionship	-1265
ix	-1266
ћу	-1267
tle	-1268
штва	-1269
▁Ису	-1270
▁only	-1271
ternal	-1272
▁played	-1273
0-	-1274
me	-1275
▁Is	-1276
▁ће	-1277
ices	-1278
нова	-1279
▁out	-1280
▁rem	-1281
▁made	-1282
▁Station	-1283
ters	-1284
ident	-1285
сло	-1286
тор	-1287
▁12	-1288
imon	-1289
▁pos	-1290
▁ret	-1291
overn	-1292
▁dist	-1293
▁Срби	-1294
▁famil	-1295
▁including	-1296
af	-1297
ника	-1298
▁pres	-1299
▁links	-1300
au	-1301
▁Ђ	-1302
ick	-1303
ley	-1304
▁II	-1305
▁sv	-1306
▁Та	-1307
omen	-1308
▁art	-1309
▁Моде	-1310
▁због	-1311
▁Company	-1312
гао	-1313
▁ло	-1314
▁ча	-1315
језик	-1316
▁prov	-1317
ene	-1318
▁Br	-1319
ague	-1320
raph	-1321
нски	-1322
пада	-1323
▁season	-1324
▁External	-1325
com	-1326
ret	-1327
▁Те	-1328
ames	-1329
rodu	-1330
вани	-1331
▁између	-1332
..	-1333
air	-1334
▁Cl	-1335
▁во	-1336
▁ца	-1337
цији	-1338
▁ser	-1339
графи	-1340
▁када	-1341
▁како	-1342
▁World	-1343
▁build	-1344
▁према	-1345
▁University	-1346
9,	-1347
ros	-1348
▁16	-1349
▁Цр	-1350
▁ро	-1351
гово	-1352
▁mod	-1353
▁доби	-1354
▁обја	-1355
ој	-1356
als	-1357
enn	-1358
ung	-1359
вје	-1360
ија	-1361
▁met	-1362
▁уче	-1363
ather	-1364
▁John	-1365
▁нема	-1366
▁techn	-1367
kt	-1368
ull	-1369
кти	-1370
лог	-1371
▁pe	-1372
▁це	-1373
▁All	-1374
▁col	-1375
▁end	-1376
▁ent	-1377
▁use	-1378
ating	-1379
▁број	-1380
▁inter	-1381
ash	-1382
oot	-1383
лта	-1384
при	-1385
▁Ab	-1386
▁бу	-1387
▁ти	-1388
arly	-1389
▁Col	-1390
▁клу	-1391
▁слу	-1392
its	-1393
lin	-1394
▁со	-1395
ures	-1396
▁Med	-1397
▁где	-1398
▁Test	-1399
▁film	-1400
▁своје	-1401
▁ср	-1402
▁уз	-1403
▁кри	-1404
▁both	-1405
ae	-1406
ai	-1407
▁Њ	-1408
bum	-1409
гле	-1410
▁dr	-1411
▁so	-1412
ball	-1413
чког	-1414
▁Ass	-1415
▁проце	-1416
риј	-1417
▁Ку	-1418
roup	-1419
▁Rec	-1420
▁dec	-1421
▁Brit	-1422
▁York	-1423
▁хриш	-1424
▁later	-1425
▁United	-1426
▁follow	-1427
▁Canadian	-1428
co	-1429
mp	-1430
ock	-1431
vol	-1432
што	-1433
▁Фи	-1434
▁зе	-1435
врши	-1436
нске	-1437
irect	-1438
▁Line	-1439
▁than	-1440
▁began	-1441
▁event	-1442
▁second	-1443
elf	-1444
ilt	-1445
лош	-1446
▁IS	-1447
▁ру	-1448
ural	-1449
вала	-1450
▁сло	-1451
такми	-1452
▁three	-1453
▁такође	-1454
."	-1455
ird	-1456
куп	-1457
рек	-1458
ром	-1459
▁11	-1460
▁El	-1461
▁Sc	-1462
▁ed	-1463
▁Су	-1464
▁Ха	-1465
▁При	-1466
▁Анти	-1467
▁деце	-1468
▁while	-1469
▁такми	-1470
▁introdu	-1471
▁American	-1472
ternational	-1473
cc	-1474
▁#	-1475
led	-1476
▁Ph	-1477
▁Ди	-1478
▁Се	-1479
ople	-1480
мена	-1481
▁est	-1482
ement	-1483
▁(200	-1484
▁Comm	-1485
▁Међу	-1486
eneral	-1487
ograph	-1488
▁X	-1489
ima	-1490
ved	-1491
▁10	-1492
▁US	-1493
stit	-1494
▁Con	-1495
▁How	-1496
▁rep	-1497
▁them	-1498
▁реги	-1499
▁again	-1500
▁разли	-1501
▁public	-1502
▁school	-1503
▁trains	-1504
ara	-1505
вре	-1506
▁2.	-1507
▁Te	-1508
▁bo	-1509
▁co	-1510
▁km	-1511
▁хе	-1512
aint	-1513
lish	-1514
▁exp	-1515
▁mat	-1516
▁иде	-1517
▁such	-1518
ij	-1519
ala	-1520
ann	-1521
ety	-1522
ike	-1523
ute	-1524
▁1.	-1525
▁Bl	-1526
▁bl	-1527
▁Пр	-1528
гани	-1529
▁Eng	-1530
▁club	-1531
▁попу	-1532
▁њихо	-1533
▁Након	-1534
▁States	-1535
cy	-1536
ern	-1537
ior	-1538
ove	-1539
про	-1540
▁sm	-1541
▁tr	-1542
▁Ја	-1543
пису	-1544
рији	-1545
▁два	-1546
▁неко	-1547
▁посто	-1548
▁13	-1549
▁Wh	-1550
▁Од	-1551
▁imp	-1552
▁уме	-1553
▁међу	-1554
▁сезо	-1555
▁album	-1556
imonium	-1557
▁family	-1558
▁утакми	-1559
▁Testimonium	-1560
4)	-1561
ey	-1562
va	-1563
ом	-1564
ana	-1565
min	-1566
рти	-1567
▁Ин	-1568
▁Ни	-1569
usic	-1570
лити	-1571
▁May	-1572
▁ass	-1573
▁num	-1574
▁feat	-1575
▁being	-1576
▁before	-1577
▁design	-1578
overnment	-1579
вно	-1580
лни	-1581
тур	-1582
very	-1583
вара	-1584
сније	-1585
▁може	-1586
-1	-1587
su	-1588
рак	-1589
њем	-1590
atal	-1591
rist	-1592
воре	-1593
▁Art	-1594
▁def	-1595
▁лат	-1596
▁сре	-1597
▁три	-1598
no	-1599
ane	-1600
ert	-1601
мпи	-1602
фор	-1603
▁po	-1604
▁мно	-1605
▁sign	-1606
▁Годи	-1607
▁приме	-1608
▁series	-1609
inu	-1610
сли	-1611
▁Гр	-1612
▁Пи	-1613
ever	-1614
вају	-1615
▁тео	-1616
▁тога	-1617
6)	-1618
cil	-1619
вне	-1620
ћан	-1621
▁Im	-1622
▁go	-1623
▁Ву	-1624
ists	-1625
osed	-1626
ређе	-1627
чких	-1628
▁cre	-1629
▁own	-1630
▁(201	-1631
ih	-1632
тка	-1633
▁Ge	-1634
▁la	-1635
▁no	-1636
▁ob	-1637
▁Ев	-1638
▁Си	-1639
▁он	-1640
зија	-1641
▁ind	-1642
▁оба	-1643
▁сва	-1644
▁фил	-1645
ution	-1646
▁игра	-1647
▁space	-1648
фа	-1649
кре	-1650
▁ve	-1651
ized	-1652
вина	-1653
▁град	-1654
ционал	-1655
графија	-1656
▁породи	-1657
2)	-1658
arl	-1659
▁Ри	-1660
▁Со	-1661
amed	-1662
cept	-1663
▁твр	-1664
areer	-1665
ugust	-1666
насти	-1667
▁Will	-1668
▁After	-1669
▁округу	-1670
ha	-1671
anc	-1672
ode	-1673
вин	-1674
лне	-1675
▁Го	-1676
▁Лу	-1677
▁Ро	-1678
▁см	-1679
eter	-1680
рова	-1681
▁cap	-1682
▁срп	-1683
ained	-1684
▁City	-1685
▁life	-1686
▁могу	-1687
▁мора	-1688
▁стране	-1689
▁предста	-1690
der	-1691
let	-1692
ves	-1693
дар	-1694
јан	-1695
▁Fl	-1696
▁we	-1697
ница	-1698
носи	-1699
▁air	-1700
▁sur	-1701
ative	-1702
зулта	-1703
▁2000	-1704
▁four	-1705
▁long	-1706
▁људи	-1707
ctober	-1708
ptember	-1709
arm	-1710
руч	-1711
чај	-1712
јем	-1713
ives	-1714
ници	-1715
▁Reg	-1716
време	-1717
▁supp	-1718
▁свет	-1719
▁2011.	-1720
▁March	-1721
▁Београ	-1722
▁Године	-1723
▁Спарте	-1724
ism	-1725
ney	-1726
uss	-1727
ове	-1728
▁Ju	-1729
▁Or	-1730
нима	-1731
ству	-1732
▁War	-1733
▁day	-1734
▁fin	-1735
▁уло	-1736
▁Mont	-1737
▁high	-1738
▁Исто	-1739
▁уста	-1740
inning	-1741
▁resid	-1742
▁County	-1743
▁&	-1744
els	-1745
erg	-1746
hen	-1747
orp	-1748
рва	-1749
узе	-1750
▁Хе	-1751
▁гр	-1752
urch	-1753
нама	-1754
нгле	-1755
▁aut	-1756
▁Кра	-1757
erson	-1758
itect	-1759
▁well	-1760
ission	-1761
▁these	-1762
▁world	-1763
3)	-1764
oe	-1765
ata	-1766
ful	-1767
row	-1768
til	-1769
uit	-1770
чар	-1771
otei	-1772
мери	-1773
▁део	-1774
▁ком	-1775
▁call	-1776
▁	-1777
e	-1778
а	-1779
a	-1780
и	-1781
t	-1782
i	-1783
е	-1784
n	-1785
о	-1786
o	-1787
r	-1788
s	-1789
н	-1790
р	-1791
l	-1792
h	-1793
с	-1794
d	-1795
т	-1796
у	-1797
к	-1798
c	-1799
в	-1800
u	-1801
ј	-1802
д	-1803
=	-1804
.	-1805
m	-1806
л	-1807
м	-1808
,	-1809
п	-1810
p	-1811
f	-1812
g	-1813
y	-1814
г	-1815
w	-1816
з	-1817
b	-1818
1	-1819
v	-1820
б	-1821
0	-1822
k	-1823
2	-1824
ш	-1825
ц	-1826
ч	-1827
9	-1828
S	-1829
T	-1830
њ	-1831
(	-1832
)	-1833
C	-1834
A	-1835
љ	-1836
х	-1837
-	-1838
С	-1839
ж	-1840
I	-1841
M	-1842
j	-1843
8	-1844
P	-1845
ф	-1846
B	-1847
3	-1848
ћ	-1849
5	-1850
4	-1851
П	-1852
H	-1853
R	-1854
7	-1855
6	-1856
z	-1857
М	-1858
L	-1859
N	-1860
"	-1861
D	-1862
G	-1863
E	-1864
F	-1865
W	-1866
К	-1867
:	-1868
А	-1869
'	-1870
O	-1871
J	-1872
ђ	-1873
x	-1874
Н	-1875
K	-1876
Р	-1877
В	-1878
Д	-1879
Б	-1880
О	-1881
Т	-1882
–	-1883
U	-1884
V	-1885
Ј	-1886
Л	-1887
И	-1888
Г	-1889
Х	-1890
У	-1891
q	-1892
„	-1893
Ф	-1894
Е	-1895
З	-1896
;	-1897
/	-1898
”	-1899
č	-1900
Y	-1901
š	-1902
“	-1903
—	-1904
Ц	-1905
Ш	-1906
%	-1907
Z	-1908
Ч	-1909
ć	-1910
é	-1911
ž	-1912
Џ	-1913
Q	-1914
X	-1915
Ж	-1916
џ	-1917
Ђ	-1918
&	-1919
Њ	-1920
#	-1921
á	-1922
+	-1923
ō	-1924
đ	-1925
α	-1926
{	-1927
}	-1928
\	-1929
[	-1930
]	-1931
Ћ	-1932
í	-1933
ü	-1934
ó	-1935
ι	-1936
$	-1937
’	-1938
ν	-1939
°	-1940
ä	-1941
ο	-1942
ā	-1943
?	-1944
!	-1945
è	-1946
ö	-1947
τ	-1948
β	-1949
à	-1950
λ	-1951
ε	-1952
μ	-1953
ς	-1954
Љ	-1955
ρ	-1956
Č	-1957
_	-1958
ú	-1959
ū	-1960
π	-1961
â	-1962
κ	-1963
Š	-1964
ω	-1965
ī	-1966
ί	-1967
γ	-1968
σ	-1969
ø	-1970
ά	-1971
δ	-1972
Ž	-1973
ː	-1974
ă	-1975
υ	-1976
Ç	-1977
η	-1978
ا	-1979
−	-1980
|	-1981
ã	-1982
^	-1983
ő	-1984
θ	-1985
ꞌ	-1986
*	-1987
É	-1988
ß	-1989
έ	-1990
ç	-1991
ê	-1992
ñ	-1993
ı	-1994
ș	-1995
ˈ	-1996
